, 158881
. 152245
the 115472
and 81830
to 67209
of 62744
a 62520
that 50887
i 48078
in 44112
it 44065
you 40250
is 37734
we 37000
&apos;s 32833
this 28776
so 21150
&quot; 20059
they 18554
was 16945
for 16258
on 16011
are 15790
have 15129
what 15010
but 14695
-- 14442
with 13548
? 13473
can 13365
&apos;t 12539
there 12139
about 11950
at 11131
as 11107
be 11049
e@@ 10818
all 10686
do 10489
c@@ 10254
an 10205
not 10199
one 10121
in@@ 9739
my 9573
&apos;re 9540
p@@ 9366
people 9082
s@@ 9082
like 8763
from 8615
if 8576
he 8353
now 8338
i@@ 8306
re@@ 8299
m@@ 8199
or 8161
t@@ 8104
these 7911
just 7870
g@@ 7611
st@@ 7588
: 7574
our 7211
very 7171
because 6995
a@@ 6930
when 6900
me 6869
li@@ 6730
out 6704
how 6684
r@@ 6517
by 6514
o@@ 6487
know 6465
l@@ 6447
up 6357
d@@ 6346
ti@@ 6308
them 6226
going 6218
here 6152
ing 6040
an@@ 5952
see 5900
think 5891
more 5858
s 5843
f@@ 5760
had 5719
b@@ 5631
which 5631
your 5559
really 5533
ed 5519
get 5353
us 5343
v@@ 5327
en@@ 5248
were 5245
then 5210
who 5206
&apos;ve 5181
would 5170
their 5151
-@@ 5107
un@@ 5043
&apos;m 4955
time 4902
es 4899
some 4859
h@@ 4828
world 4814
er@@ 4802
don 4728
actually 4645
has 4641
de@@ 4592
di@@ 4525
al@@ 4523
y@@ 4506
into 4454
way 4445
as@@ 4319
things 4275
k@@ 4273
ar@@ 4243
on@@ 4225
years 4203
go 4201
el@@ 4189
will 4187
well 4142
ac@@ 4126
no 4123
con@@ 4108
or@@ 4094
ma@@ 4085
where 4073
th@@ 4054
n@@ 4032
other 4022
y 4020
u@@ 3989
ch@@ 3974
want 3966
said 3852
could 3816
w@@ 3739
right 3714
make 3710
at@@ 3677
been 3669
si@@ 3586
something 3554
she 3491
first 3435
two 3413
t 3336
al 3316
look 3272
thing 3260
than 3258
those 3252
little 3211
got 3195
also 3154
po@@ 3124
ol@@ 3102
his 3086
lo@@ 3074
pro@@ 3067
new 3066
ri@@ 3055
ab@@ 3046
much 3038
es@@ 2995
back 2981
say 2965
ro@@ 2961
op@@ 2933
life 2930
most 2906
er 2894
over 2891
work 2866
vi@@ 2850
e 2827
ex@@ 2785
only 2780
le@@ 2761
take 2715
even 2712
kind 2704
co@@ 2703
ci@@ 2692
did 2690
need 2664
se@@ 2642
many 2619
ou@@ 2612
good 2610
am@@ 2562
able 2541
lot 2534
why 2518
let 2490
il@@ 2488
around 2478
down 2439
&apos;ll 2436
ent@@ 2384
; 2357
different 2356
every 2311
te@@ 2280
use 2270
her 2252
come 2230
through 2215
om@@ 2207
ra@@ 2192
com@@ 2176
day 2171
au@@ 2149
z@@ 2142
same 2127
im@@ 2124
l 2107
o 2084
su@@ 2081
doing 2073
put 2073
it@@ 2035
being 2024
three 2013
ly 2008
d 1998
its 1994
j@@ 1968
ad@@ 1961
pe@@ 1958
ted 1958
called 1948
ter@@ 1938
any 1928
is@@ 1916
percent 1890
ts 1874
made 1871
em@@ 1867
great 1850
&apos;d 1843
x@@ 1820
today 1816
le 1815
mo@@ 1815
tell 1782
after 1772
talk 1769
per@@ 1768
ne@@ 1740
year 1734
dis@@ 1733
me@@ 1725
sp@@ 1722
another 1697
gi@@ 1686
ta@@ 1685
human 1666
big 1660
didn 1659
mi@@ 1621
change 1618
last 1614
went 1613
ot@@ 1604
find 1603
fact 1600
own 1598
h 1596
ver@@ 1595
tion 1592
ul@@ 1587
m 1585
started 1584
should 1583
idea 1567
before 1561
ds 1560
ated 1557
pl@@ 1556
give 1552
us@@ 1545
thought 1542
ers 1531
never 1520
course 1518
thank 1518
gh@@ 1516
pre@@ 1515
story 1510
bu@@ 1508
ge@@ 1502
again 1495
du@@ 1493
c 1485
off 1483
important 1482
does 1480
qu@@ 1477
sh@@ 1471
ei@@ 1470
and@@ 1466
par@@ 1462
problem 1458
la@@ 1453
him 1451
ur@@ 1450
sc@@ 1449
show 1449
better 1448
tra@@ 1442
bo@@ 1439
fi@@ 1433
start 1432
be@@ 1431
hi@@ 1418
next 1416
ni@@ 1416
ago 1406
used 1403
et@@ 1391
bit 1390
res@@ 1390
system 1386
place 1380
still 1380
p 1379
part 1373
ation 1371
te 1366
end 1363
came 1362
man 1358
together 1357
might 1354
pa@@ 1354
brain 1351
technology 1351
each 1338
bi@@ 1330
g 1330
water 1322
ent 1317
no@@ 1313
ff@@ 1308
ck@@ 1306
k 1302
ate 1298
0@@ 1296
tu@@ 1294
few 1290
ph@@ 1281
long 1280
wi@@ 1278
mean 1271
tions 1267
ous 1266
too 1265
between 1260
gra@@ 1257
point 1243
ru@@ 1238
looking 1236
min@@ 1234
question 1227
doesn 1223
19@@ 1221
done 1209
children 1206
tri@@ 1204
love 1196
found 1186
am 1185
less 1182
do@@ 1181
maybe 1180
example 1177
man@@ 1177
cu@@ 1170
ty 1170
ce 1167
sort 1167
to@@ 1164
wanted 1160
whole 1154
school 1153
ce@@ 1150
ir@@ 1149
million 1146
data 1142
understand 1137
ever 1136
&apos; 1118
gu@@ 1109
mar@@ 1109
real 1108
ating 1107
four 1104
call 1102
live 1101
may 1095
ap@@ 1094
car@@ 1094
away 1092
n 1091
um@@ 1088
always 1083
ting 1078
try 1077
sy@@ 1075
light 1074
working 1071
everything 1070
age 1065
for@@ 1064
old 1060
ve 1060
10 1058
women 1054
money 1053
believe 1050
feel 1049
en 1040
lu@@ 1036
five 1034
trying 1032
kids 1031
power 1030
second 1030
using 1030
col@@ 1027
sa@@ 1027
design 1020
person 1020
por@@ 1008
space 1006
red 1004
tr@@ 999
country 998
number 991
! 989
ten@@ 986
ves 986
ag@@ 985
times 983
took 982
help 980
thinking 970
ar 967
food 963
pi@@ 963
de 962
les 958
ally 957
fe@@ 956
inter@@ 956
quite 956
ine 953
means 950
create 948
ha@@ 948
information 948
ho@@ 946
br@@ 937
ic@@ 932
ter 932
ary 927
making 926
sense 924
become 923
probably 923
da@@ 921
small 920
energy 916
enough 914
comes 912
ding 911
ber@@ 910
future 909
getting 908
happened 908
he@@ 907
side 905
best 904
building 904
without 897
left 896
go@@ 892
pu@@ 891
interesting 889
na@@ 887
africa 883
play 883
mon@@ 882
gen@@ 881
um 876
ment 870
body 869
stuff 868
home 867
.@@ 865
als 863
ors 862
talking 861
den@@ 856
says 854
room 849
r 848
pres@@ 846
dollars 845
b 843
pretty 843
city 842
ways 841
anything 838
science 837
social 837
half 835
goes 833
ist 832
coming 830
ask 826
earth 824
se 823
20 820
simple 819
ch 815
ck 811
ded 808
set 808
w 807
makes 805
mu@@ 802
cre@@ 801
days 801
seen 800
ans 798
des@@ 796
gr@@ 795
der@@ 790
else 790
picture 787
told 787
happen 786
ari@@ 785
est 785
ant 781
king 780
wh@@ 778
living 777
ic 776
across 774
saw 774
case 772
lives 771
ons 771
yet 771
the@@ 769
happens 768
while 768
once 765
sti@@ 765
basically 764
imagine 764
ell@@ 762
okay 761
project 760
bad 759
fo@@ 759
th 758
hard 756
line 755
ok 755
countries 754
art 752
je@@ 752
her@@ 751
men 751
cor@@ 750
move 750
asked 749
hand 747
x 747
form 745
such 745
build 743
book 740
health 740
ct@@ 738
inside 736
having 733
family 732
ties 729
der 728
experience 728
problems 723
everybody 722
sure 722
ing@@ 721
moment 721
care 719
high 717
car 716
ideas 716
learn 716
ig@@ 712
pri@@ 712
3@@ 711
sur@@ 711
later 707
5@@ 705
reason 702
almost 700
cri@@ 699
nothing 699
oh 699
computer 698
six 698
2@@ 696
process 692
so@@ 690
billion 689
business 689
ct 689
looks 689
young 689
both 688
states 687
planet 683
ste@@ 683
ction 682
global 682
50 680
mind 680
top 680
ali@@ 676
nature 676
wrong 674
pos@@ 673
single 671
sts 671
remember 667
within 667
ses 666
child 662
history 661
ju@@ 660
true 660
guy 659
son 659
trans@@ 659
ca@@ 658
cells 657
ori@@ 657
ability 656
far 655
saying 653
already 652
ps 651
tic@@ 651
yes 651
sion 648
ely 647
ity 647
land 646
music 644
ings 643
war 641
ser@@ 640
heard 639
ke 639
we@@ 639
stri@@ 636
under 635
state 634
tic 634
ven@@ 634
cancer 633
looked 633
answer 632
keep 632
gets 631
possible 629
ents 628
sub@@ 627
har@@ 626
matter 625
pen@@ 625
ob@@ 623
ces 622
hope 622
bring 621
per 621
video 619
mis@@ 617
4@@ 616
beautiful 616
often 615
wa@@ 613
months 612
sen@@ 612
30 610
universe 610
9@@ 609
built 608
ge 608
face 607
india 606
isn 605
piece 605
amazing 604
open 604
read 604
god 603
head 603
1@@ 602
sometimes 602
works 602
che@@ 598
ke@@ 596
cra@@ 593
since 592
united 591
ws 591
decided 589
ks 589
ourselves 587
sta@@ 587
words 587
bar@@ 586
ones 586
public 586
someone 584
turns 584
cted 582
myself 582
und@@ 582
... 581
species 580
education 579
until 579
couple 577
whether 577
ga@@ 576
yeah 575
group 574
instead 574
places 574
gl@@ 572
hu@@ 572
stories 572
turn 572
exactly 571
ins 571
mother 571
ates 570
control 570
taking 570
house 568
language 566
ving 566
happy 564
completely 563
order 562
cal 561
ged 561
research 560
stra@@ 560
comp@@ 559
word 559
everyone 558
jo@@ 558
over@@ 558
can@@ 556
though 556
government 555
community 554
lin@@ 554
ble 552
must 552
job 550
middle 550
internet 549
wasn 548
minutes 547
somebody 547
itself 546
stop 544
ze 544
led 541
night 541
third 541
kinds 540
level 537
7@@ 536
cy 536
heart 536
news 536
war@@ 536
woman 535
became 533
8@@ 532
animals 532
america 530
pr@@ 529
ations 528
inv@@ 528
front 527
happening 527
model 527
run 527
themselves 527
bl@@ 526
ies 526
company 525
fa@@ 525
large 525
des 524
tive 524
100 523
rather 523
u 522
cal@@ 521
huge 521
ms 521
ance 520
share 520
students 520
under@@ 520
environment 516
el 515
name 515
study 515
learned 514
china 513
oil 513
guys 510
century 509
nu@@ 509
ry 509
friends 507
american 506
hy@@ 506
natural 506
sound 506
hear 505
along 503
won 503
game 502
hours 501
ve@@ 501
couldn 498
created 498
knew 498
fish 497
worked 495
learning 494
lots 494
cul@@ 492
late 492
ess 491
tro@@ 491
gave 489
questions 489
&#91; 485
&#93; 485
ach@@ 485
against 485
air 485
during 485
machine 485
perhaps 485
self-@@ 485
society 484
zed 484
disease 483
finally 483
gre@@ 483
cy@@ 479
particular 479
ved 479
d-@@ 478
ocean 477
test 477
moving 476
based 473
takes 472
ful 471
ie 471
area 470
difference 470
early 470
others 469
sk@@ 469
vis@@ 469
figure 468
pan@@ 468
tin@@ 467
market 466
ness 465
past 465
wonderful 465
ger@@ 463
needs 461
view 460
free 459
e-@@ 457
least 457
scale 457
sing 457
ence 456
cell 455
zing 455
cr@@ 454
re 454
taken 454
seven 453
entire 452
outside 451
ki@@ 450
cur@@ 449
systems 448
close 446
ling 446
15 445
thousands 444
easy 443
changed 441
interested 441
y-@@ 441
bro@@ 440
6@@ 439
parts 439
population 438
cannot 436
parents 436
tes 436
bra@@ 435
fin@@ 435
20@@ 433
shows 433
spe@@ 432
turned 432
given 431
green 431
ics 431
lation 431
yourself 431
beginning 430
leave 430
2 429
cing 428
culture 428
image 428
bri@@ 427
eight 426
ying 426
tional 425
bur@@ 424
difficult 424
ther@@ 424
bio@@ 423
buy 422
va@@ 422
cks 421
behind 420
sed 420
fer@@ 419
grow 418
size 418
york 418
cat@@ 417
cost 417
cro@@ 416
seeing 416
stage 416
bre@@ 415
media 415
common 414
eyes 414
whatever 414
fre@@ 413
spend 413
cap@@ 412
walk 412
needed 411
wor@@ 411
audience 410
began 410
powerful 410
tur@@ 410
week 410
born 408
known 408
rest 408
black 407
books 407
fly 407
ator 405
certain 405
force 405
ging 405
ters 405
economic 403
friend 402
paper 402
ship 402
tried 402
u.s. 402
father 401
fl@@ 401
terms 401
full 400
gone 400
cities 399
ets 399
mor@@ 399
8 398
center 397
death 397
mit@@ 397
team 397
longer 396
wing 395
local 394
simply 392
amount 391
incredible 391
ments 391
ously 391
fu@@ 390
humans 390
act 389
rate 389
rel@@ 388
stic 388
tt@@ 388
feet 387
growth 387
hands 387
mer@@ 386
ground 384
f 382
field 382
structure 382
hold 381
ges 380
pla@@ 380
lan@@ 379
complex 378
spent 378
ver 378
watch 378
deal 377
realized 376
step 376
super@@ 376
girl 375
national 375
ster 375
et 374
key 374
south 374
surface 374
table 374
quickly 373
40 372
ches 372
char@@ 371
ice 371
value 371
vo@@ 371
blue 370
fra@@ 370
wouldn 369
cts 368
animal 367
pay 367
white 367
dna 366
eat 366
sea 366
lost 365
phone 365
west 365
bs 364
companies 364
sitting 364
up@@ 364
fun 363
reality 363
uni@@ 363
either 362
felt 362
medi@@ 362
3 361
forward 361
nor@@ 361
patients 361
met 360
tan@@ 360
weeks 360
write 360
ys 360
behavior 359
z 359
ba@@ 358
men@@ 358
nice 358
brought 357
out@@ 357
wrote 355
cally 354
dy 354
miles 354
oc@@ 354
squ@@ 354
ders 353
fast 353
telling 353
ia 351
opportunity 351
changes 350
feeling 350
cut 349
die 349
ure 348
growing 347
patient 347
average 346
economy 345
poor 345
theory 345
anti@@ 344
speak 343
anyone 342
ban@@ 342
ked 342
political 342
fied 341
scientists 341
developed 339
knowledge 339
t-@@ 339
technologies 339
7 338
bed 338
numbers 337
ma 336
sha@@ 336
fil@@ 335
giving 335
material 335
street 335
bottom 334
died 334
bas@@ 333
gs 333
images 333
seems 333
sted 332
discovered 331
short 331
1 330
9 330
ani@@ 330
nobody 328
starting 328
morning 327
program 327
wo@@ 326
board 325
dra@@ 325
running 325
attention 324
ger 324
pping 324
gives 323
playing 323
4 322
hom@@ 322
ear@@ 321
literally 321
absolutely 320
deep 320
personal 320
physical 320
shape 320
5 319
alone 319
ben@@ 319
english 319
low 319
map 319
micro@@ 319
movement 319
challenge 318
cli@@ 318
pped 318
produce 318
vision 318
climate 317
law 317
ning 317
realize 317
recently 316
ard 315
areas 315
ctive 315
forms 315
pur@@ 315
tation 315
uses 315
anybody 314
cars 314
film 314
individual 314
north 314
fle@@ 313
obviously 313
sive 313
12 312
ant@@ 312
my@@ 312
seem 312
0,000 311
cting 311
dr@@ 311
knows 311
non-@@ 311
6 310
incredibly 310
mit 309
ber 308
blood 308
ja@@ 307
sun 307
changing 306
focus 306
quality 306
issue 305
dark 304
industry 304
ton 304
cool 303
relationship 302
mass 301
creating 300
designed 300
normal 300
25 299
chinese 299
kid 299
lab 299
showed 299
tics 299
understanding 299
compassion 298
product 298
tend 298
university 298
ars 297
girls 297
guess 297
please 297
result 297
cl@@ 296
hundreds 296
modern 296
save 296
ative 295
clear 295
haven 295
indi@@ 295
millions 295
wall 295
games 294
position 294
clo@@ 293
effect 293
ens 293
meet 293
qui@@ 293
tools 293
box 292
cam@@ 292
connected 292
development 292
experiment 292
talked 292
begin 291
class 291
dan@@ 291
els 291
revolution 291
son@@ 291
support 291
ced 290
cked 290
fall 290
generation 290
st 290
stand 290
tiny 290
evolution 289
happiness 289
soon 289
tor@@ 289
access 288
developing 288
fully 288
gar@@ 288
hour 288
ory 288
fri@@ 287
id 287
perfect 287
web 287
solution 286
beyond 285
europe 285
innovation 285
mal@@ 285
available 284
color 284
pra@@ 284
don@@ 283
especially 283
pictures 283
teach 283
action 282
ats 282
becomes 282
east 282
medical 282
online 282
chan@@ 281
lived 281
star@@ 281
voice 281
writing 281
bat@@ 280
boy 280
cking 280
computers 280
flu@@ 280
ism 280
major 280
type 280
dar@@ 279
drive 279
explain 279
solve 279
allow 278
aren 278
dro@@ 278
groups 278
road 278
sho@@ 278
towards 278
bor@@ 277
reasons 277
situation 277
materials 276
office 276
resources 276
special 276
teachers 276
tre@@ 276
vers 276
worth 276
ye@@ 276
several 275
similar 275
dead 274
digital 274
mission 274
ren@@ 274
sters 274
ically 273
starts 273
cru@@ 272
network 272
present 272
robot 272
device 271
fear 271
rules 271
bigger 270
yo@@ 270
baby 269
certainly 269
da 269
notice 269
wind 269
evidence 268
hand@@ 268
putting 268
shi@@ 268
sions 268
sounds 268
everywhere 267
ad 265
break 265
il 265
general 264
hundred 264
indeed 264
lines 264
nine 264
speed 264
activity 263
chance 263
risk 263
security 263
truth 263
mental 262
onto 262
wait 262
80 261
ably 261
app@@ 261
grew 261
gro@@ 261
impact 261
schools 261
scientific 261
suddenly 261
tically 261
wants 261
asking 260
door 260
examples 260
eye 260
flo@@ 260
listen 260
ward 260
involved 259
month 259
ple@@ 259
village 259
anyway 258
bon@@ 258
choice 258
moral 258
strong 258
ture 258
skin 257
stay 257
bal@@ 256
basic 256
exciting 256
ready 256
ball 255
dly 255
ently 255
list 255
message 255
minute 255
ned 255
ran@@ 255
source 255
version 255
walking 255
60 254
bel@@ 254
moved 254
wish 254
eu@@ 253
issues 253
main 252
pattern 252
extremely 251
sent 251
sting 251
sto@@ 251
student 251
,000 250
college 250
gas 250
gue 250
totally 250
ants 249
ctions 249
den 249
solar 249
town 249
biggest 248
further 248
head@@ 248
hiv 248
mine 248
plants 248
potential 248
smart 248
af@@ 247
ching 247
positive 247
ined 246
page 246
projects 246
high-@@ 245
hospital 245
largest 245
particularly 245
pat@@ 245
ended 244
ine@@ 244
showing 244
ality 243
hit 243
object 243
software 243
ths 243
11 242
18@@ 242
foot 242
journey 242
mul@@ 242
pick 242
carbon 241
code 241
air@@ 240
fire 240
gener@@ 240
measure 240
cent 239
interest 239
500 238
dri@@ 238
lose 238
medicine 238
os 238
points 238
reach 238
add 237
ase 237
follow 237
lead 237
nuclear 237
row 237
san@@ 237
send 237
sit 237
store 237
ators 236
din@@ 236
gy 236
plan 236
google 235
tells 235
win@@ 235
african 234
ey 234
named 234
gers 233
organization 233
rich 233
ther 233
val@@ 233
visual 233
develop 232
extraordinary 232
mas@@ 232
mom 232
peace 232
pris@@ 232
soci@@ 232
teacher 232
dance 231
democracy 231
continue 230
expensive 230
usually 230
zz@@ 230
alized 229
buildings 229
doctor 229
likely 229
ns 229
poverty 229
serious 229
among 228
biology 228
electricity 228
fantastic 228
larger 228
success 228
watching 228
expect 227
sex 227
200 226
except 226
goal 226
international 226
trees 226
essentially 225
ish 225
objects 225
safe 225
sor@@ 225
movie 224
period 224
series 224
david 223
ingly 223
seconds 223
standing 223
talks 223
eventually 222
killed 222
ner 222
perspective 222
results 222
beauty 221
higher 221
himself 221
ise 221
products 221
sal@@ 221
sol@@ 221
somewhere 221
thousand 221
traditional 221
wife 221
written 221
18 220
cause 220
complicated 220
conditions 220
crazy 220
fine 220
hal@@ 220
touch 220
zero 220
impossible 219
ker 219
response 219
sorts 219
approach 218
leaders 218
pe 218
shot 218
architecture 217
site 217
spread 217
stars 217
upon 217
creative 216
jobs 216
kes 216
minds 216
older 216
production 216
screen 216
/ 215
allowed 215
ils 215
income 215
pal@@ 215
bacteria 214
favorite 214
ls 214
multi@@ 214
ology 214
tree 214
van@@ 214
wal@@ 214
yed 214
arm 213
camera 213
individuals 213
pieces 213
thanks 213
0 212
brains 212
finding 212
kept 212
military 212
tively 212
ines 211
models 211
plant 211
sell 211
sli@@ 211
somehow 211
successful 211
treatment 211
truly 211
wed 211
zation 211
context 210
crisis 210
excited 210
taught 210
alive 209
drugs 209
em 209
explo@@ 209
neurons 209
above 208
cation 208
far@@ 208
faster 208
rise 208
shown 208
supposed 208
training 208
western 208
worse 208
— 208
down@@ 207
famous 207
ka@@ 207
meaning 207
med 207
physics 207
range 207
reading 207
role 207
connect 206
tool 206
,@@ 205
beings 205
bodies 205
concept 205
del@@ 205
fy 205
sky 205
bul@@ 204
kill 204
one-@@ 204
ots 204
region 204
therefore 204
weight 204
fundamental 203
hey 203
dream 202
genes 202
virus 202
active 201
choose 201
dness 201
eless 201
fla@@ 201
including 201
meant 201
progress 201
trust 201
wood 201
central 199
communities 199
drug 199
s-@@ 199
ss 199
clearly 198
costs 198
earlier 198
families 198
fight 198
however 198
invented 198
lies 198
mic 198
service 198
throughout 198
americans 197
dangerous 197
ited 197
legs 197
machines 197
pain 197
star 197
strange 197
tru@@ 197
aid 196
ft 196
hot 196
record 196
smaller 196
studies 196
ten 196
two-@@ 196
bunch 195
content 195
familiar 195
lon@@ 195
slow 195
actual 194
plastic 194
policy 194
price 194
related 194
ah 193
cs 193
increase 193
massive 193
although 192
direction 192
dog 192
greater 192
listening 192
magic 192
new@@ 192
rights 192
dad 191
press 191
solutions 191
square 191
tv 191
unfortunately 191
waiting 191
cases 190
ler 190
robots 190
allows 189
driving 189
healthy 189
om 189
recognize 189
slide 189
waste 189
ese 188
immediately 188
violence 188
walked 188
ched 187
connection 187
dollar 187
flow 187
none 187
date 186
exist 186
forget 186
function 186
skills 186
surgery 186
to-@@ 186
train 186
zes 186
anymore 185
conversation 185
intelligence 185
sorry 185
specific 185
treat 185
website 185
aging 184
decisions 184
freedom 184
museum 184
patterns 184
st-@@ 184
win 184
aware 183
consider 183
effective 183
gotten 183
math 183
ore 183
protect 183
pull 183
ran 183
rule 183
travel 183
draw 182
greatest 182
hole 182
understood 182
wonder 182
current 181
diversity 181
dy@@ 181
flying 181
grand@@ 181
ham@@ 181
humanity 181
lower 181
on-@@ 181
pit@@ 181
subject 181
ta 181
forest 180
president 180
survive 180
v 180
babies 179
clean 179
genetic 179
glass 179
ped 179
remarkable 179
useful 179
agree 178
anywhere 178
critical 178
cultural 178
grade 178
john 178
performance 178
photograph 178
private 178
provide 178
song 178
stick 178
weren 178
70 177
artist 177
conflict 177
non@@ 177
obvious 177
re-@@ 177
aids 176
bank 176
cold 176
enormous 176
environmental 176
han@@ 176
ian 176
mostly 176
practice 176
self 176
ases 175
conference 175
eating 175
edi@@ 175
evolved 175
fuel 175
ide@@ 175
loved 175
mars 175
mat@@ 175
played 175
religion 175
teaching 175
television 175
values 175
complete 174
cover 174
doctors 174
forces 174
oni@@ 174
raise 174
swe@@ 174
becoming 173
creativity 173
floor 173
politics 173
pun@@ 173
scientist 173
back@@ 172
ctor 172
engineering 172
ff 172
gene 172
markets 172
ration 172
urban 172
various 172
dr. 171
final 171
gri@@ 171
lights 171
wn 171
birds 170
daughter 170
hi 170
temperature 170
90 169
cies 169
fli@@ 169
near 169
phones 169
matic 168
produced 168
quick 168
ris@@ 168
search 168
services 168
twice 168
consciousness 167
ed@@ 167
feed 167
mate 167
passion 167
sustainable 167
ads 166
capacity 166
decade 166
ha 166
heat 166
institutions 166
island 166
pass 166
possibly 166
slightly 166
stat@@ 166
ahead 165
funny 165
ical 165
lam@@ 165
nar@@ 165
path 165
speaking 165
causes 164
discover 164
ered 164
helped 164
instance 164
sat 164
she@@ 164
types 164
unique 164
year-old 164
16 163
afghanistan 163
bought 163
chris 163
experiments 163
genome 163
infrastructure 163
le-@@ 163
networks 163
recent 163
significant 163
character 162
chemical 162
designers 162
efficient 162
financial 162
mobile 162
moon 162
nation 162
radi@@ 162
shared 162
societies 162
wil@@ 162
5,000 161
ancient 161
charge 161
degrees 161
directly 161
following 161
ky 161
land@@ 161
meeting 161
net 161
original 161
push 161
shed 161
sign 161
ble@@ 160
communication 160
extra 160
park 160
sharing 160
terrible 160
track 160
below 159
carry 159
complexity 159
focused 159
indian 159
industrial 159
len@@ 159
ley 159
london 159
ny 159
police 159
purpose 159
workers 159
worry 159
mark 158
secret 158
300 157
bac@@ 157
boys 157
career 157
era 157
governments 157
paid 157
pressure 157
straight 157
summer 157
term 157
ages 156
emotional 156
inspired 156
levels 156
trade 156
10@@ 155
a-@@ 155
artists 155
balance 155
biological 155
birth 155
capital 155
dent 155
diseases 155
foundation 155
whose 155
willing 155
bly 154
ca 154
closer 154
creates 154
effects 154
etc 154
event 154
forth 154
meters 154
sleep 154
stream 154
differences 153
oxygen 153
ute 153
apart 152
challenges 152
cycle 152
drop 152
laws 152
memory 152
molecules 152
speci@@ 152
structures 152
atmosphere 151
bill 151
bing 151
cas@@ 151
explore 151
fit 151
flu 151
na 151
supply 151
text 151
trial 151
trouble 151
$ 150
dying 150
end@@ 150
o-@@ 150
particles 150
rooms 150
sphere 150
yellow 150
asia 149
devices 149
im 149
lets 149
rock 149
spending 149
stone 149
work@@ 149
broken 148
flies 148
organisms 148
party 148
pers 148
published 148
seemed 148
sin@@ 148
tail 148
10,000 147
california 147
chi@@ 147
colleagues 147
easily 147
faces 147
graph 147
lie 147
noticed 147
radio 147
sla@@ 147
sun@@ 147
worst 147
answers 146
counter@@ 146
fair 146
hearing 146
highly 146
ne 146
ping 146
popular 146
prison 146
studying 146
total 146
blind 145
chair 145
decades 145
decide 145
electric 145
passed 145
phenomenon 145
turning 145
bringing 144
check 144
choices 144
condition 144
lucky 144
necessarily 144
stopped 144
communicate 143
conver@@ 143
responsibility 143
task 143
iraq 142
knowing 142
noise 142
print 142
q@@ 142
tremendous 142
1,000 141
bird 141
bits 141
coffee 141
decision 141
feels 141
fying 141
ko@@ 141
mountain 141
richard 141
surprising 141
window 141
&amp; 140
al-@@ 140
corner 140
edge 140
engine 140
improve 140
leads 140
low-@@ 140
mur@@ 140
neuro@@ 140
possibility 140
-year-old 139
achieve 139
basis 139
bone 139
civil 139
ctors 139
farmers 139
fix 139
helping 139
hes 139
pounds 139
programs 139
return 139
argument 138
fairly 138
formed 138
nearly 138
relationships 138
throw 138
address 137
brings 137
designer 137
fold 137
lt 137
lying 137
missing 137
ought 137
tissue 137
yer 137
definition 136
electro@@ 136
elements 136
giant 136
hum@@ 136
interact 136
meter 136
race 136
typical 136
14 135
differently 135
figured 135
flight 135
justice 135
moments 135
mothers 135
reduce 135
standard 135
&apos;@@ 134
1.@@ 134
benefits 134
core 134
finished 134
graphy 134
held 134
imagination 134
ink 134
join 134
load 134
not@@ 134
opportunities 134
organizations 134
religious 134
river 134
suffering 134
boat 133
ering 133
french 133
hair 133
iled 133
j 133
landscape 133
mouse 133
planets 133
professor 133
ra 133
shift 133
spo@@ 133
afraid 132
benefit 132
bread 132
breast 132
card 132
competition 132
conscious 132
creatures 132
engineers 132
mr. 132
sand 132
sites 132
tom 132
tures 132
bridge 131
stem 131
1,@@ 130
colors 130
comfortable 130
ends 130
forever 130
hea@@ 130
organic 130
resi@@ 130
streets 130
tan 130
well-@@ 130
bla@@ 129
block 129
british 129
enter 129
fields 129
heads 129
holding 129
lesson 129
moves 129
notion 129
prize 129
profit 129
slowly 129
visit 129
base 128
begins 128
calls 128
campaign 128
catch 128
circle 128
citizens 128
describe 128
despite 128
gun 128
insects 128
mathematics 128
matters 128
meat 128
negative 128
rain 128
ray 128
saving 128
vely 128
billions 127
coast 127
degree 127
discovery 127
events 127
experiences 127
helps 127
otherwise 127
perfectly 127
pet@@ 127
traffic 127
walls 127
brilliant 126
distance 126
easier 126
effort 126
entirely 126
factory 126
fore@@ 126
nations 126
necessary 126
offer 126
opened 126
painting 126
ring 126
shop 126
studied 126
afford 125
bling 125
contra@@ 125
count 125
emotions 125
fication 125
japan 125
members 125
normally 125
photo 125
placed 125
prote@@ 125
responsible 125
sector 125
sister 125
ultimately 125
adults 124
apply 124
enjoy 124
female 124
magazine 124
mouth 124
opposite 124
profound 124
report 124
statistics 124
tech 124
wisdom 124
13 123
400 123
caught 123
desert 123
engineer 123
facebook 123
foreign 123
leading 123
operating 123
quar@@ 123
seriously 123
sold 123
supp@@ 123
tations 123
trained 123
u.k. 123
wear 123
according 122
alize 122
angle 122
fashion 122
fill 122
galaxies 122
influence 122
inner 122
investment 122
la 122
motion 122
plus 122
principles 122
puts 122
respect 122
spring 122
station 122
steps 122
wow 122
attack 121
cheap 121
engage 121
extreme 121
identity 121
shouldn 121
sick 121
argue 120
commercial 120
constantly 120
consumption 120
failed 120
fourth 120
limited 120
loss 120
oceans 120
promise 120
stuck 120
thinks 120
airplane 119
bility 119
capable 119
dry 119
fighting 119
filled 119
graphic 119
hat@@ 119
hopefully 119
in-@@ 119
legal 119
metaphor 119
quote 119
raised 119
san 119
sequence 119
smo@@ 119
tumor 119
wealth 119
wild 119
24 118
agriculture 118
beat 118
co2 118
dynamic 118
followed 118
husband 118
invest 118
leaving 118
predict 118
prevent 118
respond 118
shoes 118
transform 118
2,000 117
alism 117
arms 117
article 117
background 117
dreams 117
due 117
equal 117
fascinating 117
harder 117
importantly 117
labor 117
male 117
sis 117
three-@@ 117
virtual 117
bees 116
believed 116
creation 116
crime 116
damage 116
desire 116
distribution 116
finger 116
gate 116
hate 116
languages 116
pair 116
passionate 116
roll 116
tens 116
therapy 116
tomorrow 116
tough 116
washington 116
advantage 115
bar 115
brother 115
co 115
dinner 115
invisible 115
majority 115
organized 115
random 115
spaces 115
spirit 115
viruses 115
apple 114
bot@@ 114
caused 114
dge 114
driven 114
equivalent 114
generate 114
molecule 114
pages 114
paint 114
speech 114
survival 114
sy 114
val 114
weird 114
whenever 114
wide 114
belief 113
compare 113
economics 113
failure 113
farm 113
ites 113
los 113
note 113
principle 113
sad 113
sl@@ 113
treated 113
wearing 113
yesterday 113
20th 112
acts 112
childhood 112
deeply 112
dimensions 112
intelligent 112
managed 112
neighborhood 112
opening 112
th-@@ 112
theater 112
unless 112
wave 112
ak 111
construction 111
dinosaurs 111
hed 111
ii 111
lack 111
leaves 111
malaria 111
mc@@ 111
mortality 111
paul 111
proud 111
rein@@ 111
soil 111
versus 111
warming 111
worried 111
17 110
bear 110
charles 110
church 110
concerned 110
covered 110
electrical 110
everyday 110
galaxy 110
ka 110
muscle 110
names 110
paying 110
represent 110
section 110
sexual 110
shapes 110
surprise 110
wake 110
actions 109
brand 109
define 109
drawing 109
facts 109
houses 109
increasingly 109
launched 109
mentioned 109
ol 109
ph 109
photos 109
suit 109
suppose 109
weapons 109
alists 108
appear 108
bright 108
camp 108
civilization 108
cker 108
classroom 108
currently 108
described 108
designing 108
european 108
expression 108
holes 108
institute 108
letter 108
professional 108
protein 108
rid 108
roughly 108
sudden 108
vehicle 108
affect 107
arts 107
ash 107
cloud 107
copy 107
coral 107
debate 107
deliver 107
fell 107
george 107
graduate 107
hell 107
hidden 107
invited 107
japanese 107
kenya 107
lat@@ 107
leadership 107
losing 107
lunch 107
mexico 107
option 107
plane 107
stands 107
universal 107
vast 107
35 106
aries 106
awful 106
bles 106
continent 106
exists 106
gain 106
garden 106
grandmother 106
heavy 106
honest 106
horse 106
interaction 106
ners 106
ordinary 106
seat 106
separate 106
smell 106
spot 106
teeth 106
threat 106
toward 106
voices 106
99 105
acting 105
actor 105
collective 105
depression 105
direct 105
einstein 105
emotion 105
finish 105
forming 105
geo@@ 105
gold 105
producing 105
strategy 105
associated 104
cher 104
compared 104
definitely 104
evil 104
experts 104
hasn 104
keeping 104
leader 104
link 104
magnetic 104
mile 104
newspaper 104
nigeria 104
notes 104
planning 104
sight 104
signal 104
steel 104
sugar 104
surprised 104
trip 104
underneath 104
wards 104
45 103
accident 103
chemicals 103
collect 103
cure 103
dies 103
fat 103
feelings 103
ize 103
pre-@@ 103
rural 103
soldiers 103
valley 103
17@@ 102
demand 102
equipment 102
grown 102
interface 102
jump 102
multiple 102
prime 102
resource 102
sides 102
signals 102
sum 102
worldwide 102
artificial 101
atory 101
budget 101
chemistry 101
closed 101
cognitive 101
consequences 101
controlled 101
corruption 101
double 101
essential 101
facing 101
generations 101
gram 101
highest 101
independent 101
joy 101
married 101
powered 101
studio 101
transformation 101
union 101
zo@@ 101
100,000 100
australia 100
contact 100
cultures 100
email 100
emerging 100
importance 100
killing 100
ladies 100
layer 100
library 100
miss 100
nervous 100
ours 100
selling 100
status 100
sty 100
sub-@@ 100
vote 100
warm 100
wars 100
whom 100
150 99
alization 99
chicken 99
cortex 99
empty 99
iran 99
letters 99
molecular 99
northern 99
operate 99
pole 99
property 99
rational 99
spoke 99
stood 99
technical 99
typically 99
army 98
avoid 98
c. 98
deeper 98
department 98
dogs 98
england 98
fellow 98
flat 98
folks 98
forced 98
hero 98
israel 98
james 98
master 98
mid@@ 98
picked 98
player 98
que 98
relatively 98
shall 98
solved 98
spectrum 98
stu@@ 98
wire 98
wired 98
account 97
adult 97
anti-@@ 97
breath 97
brown 97
characters 97
curious 97
dots 97
efficiency 97
gam@@ 97
ination 97
intellectual 97
lady 97
match 97
mix 97
practical 97
protection 97
prove 97
regular 97
roots 97
sharks 97
tered 97
users 97
violent 97
weather 97
alternative 96
britain 96
bus 96
calling 96
daily 96
detail 96
homes 96
invention 96
kilometers 96
leg 96
mathematical 96
michael 96
mountains 96
round 96
senses 96
suggest 96
thoughts 96
va 96
absolute 95
affected 95
brazil 95
canada 95
cards 95
chain 95
clinical 95
coal 95
diet 95
experienced 95
fire@@ 95
fresh 95
lands 95
lessons 95
marketing 95
movies 95
nasa 95
organs 95
photographs 95
pleasure 95
possibilities 95
reaction 95
remote 95
twitter 95
600 94
addition 94
arrived 94
bang 94
clock 94
disaster 94
effectively 94
fishing 94
introduced 94
kitchen 94
long-term 94
method 94
minister 94
pil@@ 94
relevant 94
scene 94
waves 94
axis 93
bush 93
by@@ 93
considered 93
dealing 93
details 93
drink 93
grand 93
hot@@ 93
kar@@ 93
management 93
maps 93
metal 93
nor 93
partner 93
penguins 93
radiation 93
saved 93
sentence 93
tele@@ 93
van 93
3,000 92
3d 92
buying 92
cooking 92
cross 92
employees 92
epidemic 92
germany 92
gift 92
gravity 92
hadn 92
hall 92
marine 92
players 92
productive 92
received 92
setting 92
sle@@ 92
specifically 92
struggle 92
winter 92
wise 92
2008 91
analysis 91
beach 91
businesses 91
cated 91
cutting 91
darwin 91
eastern 91
exercise 91
fail 91
fossil 91
laptop 91
liked 91
location 91
mention 91
mistake 91
radical 91
requires 91
ships 91
southern 91
switch 91
testing 91
transition 91
valuable 91
appropriate 90
atoms 90
broke 90
dan 90
democratic 90
ecosystem 90
express 90
feedback 90
introduce 90
ished 90
mistakes 90
post-@@ 90
reward 90
sil@@ 90
silk 90
tests 90
tons 90
trials 90
arab 89
behaviors 89
click 89
components 89
consumer 89
existence 89
factor 89
five-@@ 89
lifetime 89
manage 89
milk 89
motor 89
pop 89
prepared 89
primary 89
properties 89
psychology 89
restaurant 89
rever@@ 89
target 89
techniques 89
theme 89
unlike 89
unusual 89
accept 88
bottle 88
bubble 88
carrying 88
display 88
evolutionary 88
fewer 88
gap 88
generally 88
increasing 88
infected 88
instrument 88
medium 88
naturally 88
poetry 88
politicians 88
proteins 88
quantum 88
rare 88
represents 88
safety 88
via 88
videos 88
visible 88
whereas 88
writer 88
berg 87
bet 87
capture 87
connections 87
convince 87
credit 87
faith 87
honor 87
identify 87
neighbors 87
processes 87
roof 87
runs 87
sets 87
sir 87
swim 87
user 87
variety 87
watched 87
wikipedia 87
- 86
-up 86
ancestors 86
battle 86
brothers 86
cat 86
continued 86
crash 86
driver 86
error 86
exchange 86
expected 86
hing 86
ken 86
makers 86
member 86
novel 86
perception 86
personally 86
platform 86
pulled 86
researchers 86
satellite 86
serve 86
situations 86
stock 86
string 86
style 86
u.n. 86
unit 86
advanced 85
blocks 85
burn 85
burning 85
cents 85
clip 85
closely 85
cry 85
defined 85
depends 85
ep 85
estimate 85
fake 85
former 85
goods 85
gulf 85
lay 85
liquid 85
males 85
marriage 85
mirror 85
peak 85
pollution 85
rates 85
reached 85
recorded 85
risks 85
tries 85
zone 85
2007 84
amounts 84
architect 84
battery 84
correct 84
ears 84
goals 84
gy@@ 84
joke 84
pin@@ 84
relate 84
require 84
sensitive 84
sources 84
steve 84
stupid 84
sunlight 84
tradition 84
vaccine 84
75 83
algorithms 83
aspect 83
collaboration 83
discussion 83
emissions 83
empathy 83
environments 83
fortunate 83
frame 83
gay 83
gentlemen 83
healthcare 83
hoping 83
kers 83
movements 83
organ 83
percentage 83
pollen 83
post 83
quiet 83
ride 83
sees 83
solving 83
taste 83
thomas 83
traveling 83
ultimate 83
band 82
carefully 82
destruction 82
dish 82
dramatic 82
figures 82
hotel 82
interests 82
opinion 82
remain 82
replace 82
sending 82
shaped 82
stable 82
three-dimensional 82
topic 82
trick 82
wine 82
applied 81
awareness 81
centers 81
collection 81
convinced 81
element 81
eric 81
exploration 81
ized 81
operation 81
pointed 81
protected 81
shake 81
shark 81
shoot 81
signs 81
survey 81
tape 81
vulnerable 81
wondering 81
youtube 81
added 80
amp 80
applications 80
birthday 80
bones 80
computing 80
crowd 80
curve 80
dropped 80
electronic 80
existing 80
explanation 80
falling 80
feeding 80
francisco 80
harvard 80
hits 80
holds 80
hydrogen 80
include 80
islands 80
laboratory 80
plays 80
religions 80
skill 80
sophisticated 80
strength 80
stress 80
tac@@ 80
technological 80
bag 79
bomb 79
boston 79
boxes 79
breaking 79
channel 79
claim 79
combination 79
conventional 79
economists 79
encourage 79
fund 79
increased 79
insight 79
institution 79
literature 79
logic 79
nose 79
pakistan 79
polio 79
remains 79
robert 79
sample 79
singing 79
smile 79
tie 79
transportation 79
tube 79
windows 79
2000 78
accurate 78
advice 78
cameras 78
combined 78
confidence 78
flowers 78
fundamentally 78
gdp 78
grid 78
hip 78
hurt 78
islam 78
keeps 78
maker 78
neither 78
odd 78
pacific 78
partners 78
previous 78
relative 78
solid 78
sw@@ 78
tracking 78
trillion 78
upper 78
water@@ 78
21 77
ances 77
bin 77
cast 77
cow 77
entertainment 77
falls 77
fingers 77
horrible 77
length 77
linked 77
microbes 77
monkeys 77
outcome 77
presence 77
presentation 77
reverse 77
roads 77
rocket 77
sal 77
shares 77
sweet 77
title 77
atten@@ 76
bay 76
circumstances 76
collapse 76
component 76
director 76
entrepreneurs 76
equation 76
expand 76
explains 76
factors 76
fed 76
framework 76
occur 76
options 76
pack 76
patent 76
shame 76
suggests 76
telescope 76
2010 75
architects 75
authority 75
behavioral 75
boring 75
corporate 75
dancing 75
deaths 75
detect 75
doubt 75
films 75
finance 75
flew 75
funding 75
genius 75
grain 75
graphics 75
hospitals 75
manufacturing 75
musical 75
mystery 75
paris 75
queen 75
rapidly 75
recording 75
remind 75
signed 75
simplicity 75
staff 75
surgeon 75
symmetry 75
thin 75
well-being 75
worlds 75
younger 75
activities 74
alities 74
chicago 74
climb 74
clouds 74
determine 74
features 74
hydro@@ 74
illness 74
inspiration 74
internal 74
lake 74
mechanical 74
mid-@@ 74
organism 74
performing 74
philosophy 74
post@@ 74
raising 74
sculpture 74
selection 74
subjects 74
tested 74
tonight 74
treating 74
wheel 74
wireless 74
wondered 74
abstract 73
afternoon 73
comfort 73
decline 73
distributed 73
forests 73
innovative 73
mechanism 73
nowhere 73
obsessed 73
occurred 73
ologists 73
origami 73
paradigm 73
particle 73
photo@@ 73
pocket 73
prices 73
pure 73
regions 73
release 73
statement 73
stronger 73
tea 73
technique 73
touched 73
unexpected 73
vehicles 73
victims 73
walks 73
africans 72
author 72
celebrate 72
chose 72
combine 72
conclusion 72
creature 72
defense 72
designs 72
dh 72
educational 72
eggs 72
exact 72
explained 72
fan 72
functional 72
handle 72
heroes 72
illegal 72
meaningful 72
phase 72
printing 72
quarter 72
raw 72
required 72
scan 72
sustainability 72
swimming 72
unclear 72
uns@@ 72
vessels 72
wherever 72
21st 71
attempt 71
blog 71
button 71
careful 71
clothes 71
collected 71
directions 71
drives 71
egypt 71
election 71
engaged 71
frankly 71
generated 71
globe 71
golden 71
intense 71
largely 71
launch 71
lighting 71
messages 71
ologist 71
plans 71
potentially 71
processing 71
proof 71
surely 71
transformed 71
underwater 71
19th 70
60s 70
admit 70
arctic 70
bible 70
court 70
dense 70
economies 70
embrace 70
equally 70
evening 70
ford 70
german 70
grows 70
identical 70
instruments 70
iron 70
laugh 70
lovely 70
mad 70
measured 70
obama 70
paintings 70
participate 70
pen 70
piano 70
plate 70
poem 70
released 70
sely 70
severe 70
somewhat 70
stayed 70
sticks 70
trend 70
ya 70
14@@ 69
16@@ 69
chapter 69
chocolate 69
cook 69
divide 69
divided 69
false 69
fuels 69
gender 69
haiti 69
hello 69
korea 69
muslim 69
nets 69
overall 69
physically 69
pile 69
puzzle 69
resistance 69
retro@@ 69
root 69
split 69
sweden 69
unknown 69
volume 69
weak 69
welcome 69
50,000 68
bf 68
busy 68
by-@@ 68
capit@@ 68
chip 68
christmas 68
co-@@ 68
congress 68
dirty 68
faced 68
feature 68
flower 68
fortune 68
four-@@ 68
france 68
greenhouse 68
immune 68
incentives 68
infinite 68
ing-@@ 68
joined 68
kingdom 68
measuring 68
obesity 68
passing 68
perform 68
posing 68
prototype 68
savings 68
scared 68
september 68
soft 68
soul 68
spar@@ 68
usual 68
whales 68
zoom 68
agreed 67
automatically 67
bike 67
carried 67
clinic 67
commitment 67
connecting 67
consumers 67
density 67
depend 67
disappeared 67
existed 67
frank 67
furniture 67
happier 67
housing 67
invent 67
lung 67
offered 67
pregnant 67
reaching 67
secondly 67
session 67
sheep 67
shock 67
silence 67
spreading 67
struck 67
tall 67
teams 67
19 66
20,000 66
2005 66
clever 66
dolphins 66
dor@@ 66
ear 66
exploring 66
functions 66
granted 66
half-@@ 66
hunger 66
implications 66
input 66
interview 66
intuitive 66
march 66
narrative 66
nest 66
parking 66
probability 66
romantic 66
shut 66
songs 66
suffer 66
villages 66
agency 65
apparently 65
appreciate 65
attacks 65
awesome 65
border 65
breathe 65
causing 65
chart 65
circuit 65
classic 65
club 65
danger 65
depending 65
enable 65
extinct 65
gates 65
grab 65
gray 65
height 65
inspiring 65
interactive 65
interestingly 65
ists 65
ku@@ 65
lifestyle 65
long-@@ 65
microscope 65
painful 65
phrase 65
pig 65
spider 65
stations 65
symptoms 65
synthetic 65
till 65
tower 65
translate 65
x-ray 65
year-olds 65
2009 64
application 64
arguments 64
assume 64
balloon 64
bell 64
ben 64
calculate 64
concrete 64
constant 64
corn 64
disorder 64
dot 64
entered 64
fortunately 64
friendly 64
grass 64
higgs 64
hill 64
iphone 64
islamic 64
latest 64
latin 64
links 64
mess 64
powers 64
properly 64
records 64
reference 64
rising 64
samples 64
script 64
secure 64
silicon 64
spoken 64
tasks 64
wanting 64
70s 63
aside 63
behave 63
breathing 63
capitalism 63
cats 63
centuries 63
chest 63
congo 63
curiosity 63
determined 63
dozen 63
dramatically 63
geographic 63
ghana 63
inch 63
inspire 63
judge 63
liver 63
optimistic 63
oxford 63
prefer 63
recovery 63
reflect 63
remove 63
reputation 63
score 63
shell 63
shoulder 63
snow 63
symbol 63
tag 63
tied 63
toxic 63
2004 62
27 62
adam 62
advertising 62
all-@@ 62
breaks 62
classes 62
cute 62
dependent 62
disappear 62
disorders 62
distant 62
drinking 62
elephant 62
exhibition 62
hang 62
hide 62
ignore 62
illusion 62
lens 62
les@@ 62
linear 62
mainly 62
productivity 62
russia 62
scary 62
slides 62
standards 62
texas 62
tour 62
whale 62
22 61
65 61
adapt 61
afterwards 61
ain 61
apartment 61
appears 61
attached 61
chaos 61
charity 61
clay 61
concepts 61
conservation 61
darkness 61
destroy 61
destroyed 61
educated 61
enemy 61
extent 61
facial 61
fixed 61
ideal 61
legacy 61
meetings 61
neuron 61
op 61
orbit 61
organize 61
outcomes 61
parent 61
peter 61
physicist 61
populations 61
reduction 61
seed 61
telephone 61
thrown 61
tragedy 61
transparency 61
units 61
virtually 61
wea@@ 61
appeared 60
atlantic 60
autism 60
backwards 60
blow 60
challenging 60
chimpanzees 60
contrast 60
conversations 60
desk 60
dig 60
dioxide 60
dynamics 60
embedded 60
hardly 60
headed 60
heaven 60
herself 60
historical 60
january 60
k-@@ 60
locked 60
memories 60
monkey 60
nurses 60
orange 60
papers 60
parallel 60
positions 60
produces 60
ridiculous 60
season 60
seats 60
sheet 60
surrounded 60
talent 60
traveled 60
ugly 60
vulnerability 60
worker 60
80s 59
academic 59
accessible 59
anger 59
bee 59
bias 59
cheaper 59
cher@@ 59
controlling 59
cup 59
currency 59
derek 59
ending 59
excuse 59
fiber 59
fifth 59
filter 59
floating 59
frequency 59
golf 59
increases 59
involves 59
jack 59
landed 59
microsoft 59
morality 59
muscles 59
oldest 59
opens 59
overcome 59
photography 59
presented 59
resolution 59
smoke 59
so-called 59
soviet 59
spiritual 59
tired 59
uganda 59
2006 58
achieved 58
adding 58
angeles 58
chosen 58
colony 58
diabetes 58
drawn 58
expert 58
frozen 58
funded 58
includes 58
lecture 58
maintain 58
naked 58
official 58
pace 58
personality 58
photographed 58
plenty 58
poorest 58
provides 58
pushing 58
reef 58
rice 58
smallpox 58
sports 58
spots 58
stanford 58
static 58
super-@@ 58
tax 58
truck 58
volunteers 58
.com 57
2003 57
26 57
agenda 57
allo@@ 57
allowing 57
asks 57
beer 57
brief 57
continues 57
copyright 57
demonstrate 57
discoveries 57
drill 57
excellent 57
fears 57
fluid 57
foods 57
globalization 57
habitat 57
hearts 57
host 57
journalist 57
killer 57
laid 57
lift 57
missed 57
muslims 57
practices 57
precisely 57
psychological 57
rarely 57
reduced 57
rush 57
silent 57
thick 57
toilet 57
tricks 57
trucks 57
writers 57
yours 57
0.@@ 56
95 56
angry 56
astonishing 56
boards 56
cable 56
capita 56
courage 56
dedicated 56
diagram 56
earthquake 56
emergency 56
ethiopia 56
extract 56
fabulous 56
facility 56
fascinated 56
fiction 56
finds 56
glamorous 56
gps 56
hungry 56
imagined 56
integrated 56
kb 56
letting 56
license 56
motivation 56
native 56
opposed 56
orchestra 56
provided 56
removed 56
searching 56
speakers 56
storm 56
terrorism 56
tribes 56
with@@ 56
13@@ 55
affordable 55
bars 55
bicycle 55
cambridge 55
clients 55
conclude 55
controls 55
crying 55
drove 55
elsewhere 55
ethical 55
explaining 55
gang 55
gging 55
glasses 55
grandfather 55
hollywood 55
jail 55
likes 55
limits 55
loud 55
nurse 55
permanent 55
pilot 55
pyramid 55
qualities 55
react 55
recognition 55
recognized 55
shooting 55
skull 55
super 55
surfaces 55
2001 54
4,000 54
agricultural 54
aircraft 54
airport 54
architectural 54
artistic 54
biologists 54
cap 54
chief 54
circles 54
collecting 54
consequence 54
consume 54
contains 54
customers 54
dignity 54
dust 54
economist 54
emerge 54
escape 54
figuring 54
gore 54
harm 54
informed 54
knee 54
nobel 54
observation 54
origin 54
picking 54
polar 54
pool 54
poster 54
protecting 54
receive 54
returned 54
review 54
saturn 54
succeed 54
suggesting 54
suicide 54
tank 54
transport 54
trends 54
23 53
accidents 53
alien 53
bears 53
borders 53
brian 53
cartoon 53
cash 53
cave 53
climbing 53
computation 53
crossing 53
dimension 53
elled 53
encounter 53
fathers 53
focusing 53
glamour 53
gut 53
initial 53
jewish 53
june 53
layers 53
mammals 53
martin 53
mice 53
mining 53
musicians 53
neighbor 53
neural 53
offers 53
openness 53
palm 53
photographer 53
poet 53
precise 53
predictions 53
proper 53
providing 53
quest 53
realm 53
rebuild 53
regret 53
repair 53
represented 53
rescue 53
rio 53
rocks 53
rwanda 53
scales 53
sensory 53
separated 53
sharp 53
sport 53
transparent 53
underground 53
vable 53
variation 53
1990s 52
800 52
amongst 52
barely 52
boundaries 52
buried 52
characteristics 52
concern 52
constructed 52
devil 52
diagnosed 52
diverse 52
dress 52
ecosystems 52
electronics 52
gathering 52
hardware 52
highway 52
hire 52
inches 52
injury 52
interactions 52
loop 52
mines 52
monitor 52
n-@@ 52
neuroscience 52
october 52
optimism 52
output 52
owned 52
pulling 52
pump 52
reports 52
sales 52
shelf 52
someday 52
strategies 52
symbols 52
unbelievable 52
vacuum 52
vertical 52
watts 52
weapon 52
-like 51
250 51
app 51
asteroid 51
backs 51
bis@@ 51
bottles 51
classical 51
council 51
crops 51
damn 51
detection 51
dinosaur 51
dolphin 51
efforts 51
emerged 51
essence 51
exposed 51
failing 51
farmer 51
favor 51
federal 51
flip 51
frog 51
fruit 51
governance 51
hanging 51
harvest 51
humor 51
ingredients 51
innovations 51
insurance 51
interacting 51
joe 51
lac@@ 51
limb 51
mall 51
manhattan 51
marks 51
mixed 51
mode 51
plot 51
pointing 51
policies 51
preserve 51
privilege 51
pushed 51
rely 51
reported 51
revenue 51
richer 51
seeds 51
seek 51
smooth 51
speaker 51
stages 51
tension 51
treatments 51
tumors 51
unlikely 51
vital 51
winning 51
1960 50
32 50
amazon 50
announced 50
besides 50
committed 50
conflicts 50
consistent 50
cooperation 50
depressed 50
dive 50
document 50
domestic 50
engaging 50
evolve 50
footprint 50
garbage 50
gentleman 50
globally 50
guide 50
historic 50
laser 50
liberal 50
may@@ 50
meal 50
methods 50
originally 50
parties 50
procedure 50
robotic 50
scratch 50
sentences 50
served 50
shopping 50
shrimp 50
silly 50
skeleton 50
sleeping 50
spinal 50
stones 50
stores 50
struggling 50
subway 50
successfully 50
teenagers 50
toes 50
wash 50
q 39
+ 37
é@@ 37
é 35
á@@ 21
) 14
# 12
í@@ 12
ó@@ 11
ö@@ 11
– 9
ü@@ 8
% 7
= 7
è@@ 7
( 6
@ 6
^ 6
ä@@ 5
ã@@ 4
ç@@ 4
อ@@ 4
 3
 3
â 3
ê@@ 3
ñ@@ 3
² 2
à 2
í 2
ā@@ 2
ร 2
่ 2
* 1
\ 1
_ 1
£ 1
â@@ 1
è 1
ë@@ 1
ï@@ 1
ô@@ 1
ø@@ 1
ú@@ 1
ă@@ 1
ć 1
ē 1
ť 1
ย 1
ย@@ 1
… 1
€ 1
你@@ 1
葱 1
送@@ 1
